#include "sine_model_data.h"

ai_handle ai_sine_model_data_weights_get(void)
{

  AI_ALIGNED(4)
  static const ai_u8 s_sine_model_weights[ 1284 ] = {
    0x80, 0xb6, 0x10, 0xbf, 0xae, 0x70, 0x0b, 0x3f, 0x58, 0x66,
    0xab, 0xbd, 0x7c, 0xe4, 0x38, 0xbe, 0xf5, 0x89, 0x9f, 0x3e,
    0x28, 0x2e, 0x70, 0x3e, 0x7c, 0x68, 0xf2, 0xbd, 0x1a, 0xe7,
    0x8f, 0x3e, 0x82, 0xc3, 0x05, 0xbf, 0x3e, 0x72, 0x6e, 0x3e,
    0xbe, 0x92, 0xc9, 0x3e, 0xc1, 0xed, 0xea, 0x3e, 0xc3, 0xfe,
    0xf0, 0x3e, 0xc9, 0xba, 0xc4, 0x3e, 0x28, 0x2b, 0xa5, 0xbe,
    0x8a, 0x02, 0x78, 0xbe, 0x00, 0x00, 0x00, 0x00, 0xa6, 0x0b,
    0xdb, 0xbe, 0x00, 0x00, 0x00, 0x00, 0x00, 0x00, 0x00, 0x00,
    0xc1, 0x93, 0x4e, 0xbf, 0xea, 0xfe, 0x09, 0xbb, 0x00, 0x00,
    0x00, 0x00, 0xc9, 0x45, 0xfc, 0xbe, 0x00, 0x00, 0x00, 0x00,
    0x72, 0xfe, 0x8a, 0xbe, 0x25, 0xfb, 0x2a, 0xbd, 0x6d, 0xff,
    0x68, 0xbf, 0xa3, 0x80, 0x93, 0x3e, 0xc8, 0x32, 0x31, 0x3f,
    0x00, 0x00, 0x00, 0x00, 0x00, 0x00, 0x00, 0x00, 0x7a, 0x8b,
    0xac, 0xbe, 0xf9, 0x40, 0xbf, 0xbd, 0x2e, 0x54, 0x7a, 0x3e,
    0xad, 0x30, 0xb0, 0x3e, 0xbc, 0x05, 0x3f, 0x3e, 0xc5, 0x3c,
    0xc1, 0x3e, 0x54, 0xca, 0x6a, 0xbe, 0x5d, 0xb8, 0x85, 0xbe,
    0x70, 0x16, 0x29, 0xbe, 0x7f, 0x25, 0x74, 0x3e, 0x90, 0x3b,
    0xa7, 0x3e, 0x3c, 0x19, 0xc6, 0xbd, 0x31, 0xc9, 0xdd, 0x3d,
    0xdf, 0x64, 0x2c, 0x3e, 0x15, 0xb7, 0x96, 0x3e, 0x50, 0x67,
    0xf9, 0xbc, 0x6e, 0xc6, 0x02, 0xbe, 0xa9, 0x88, 0xbe, 0x3d,
    0xae, 0x01, 0x3a, 0x3e, 0xb7, 0x44, 0xd7, 0xbe, 0x6c, 0xe0,
    0xfa, 0xbe, 0xe9, 0xb6, 0xad, 0x3e, 0x80, 0x5f, 0xd2, 0x3c,
    0x80, 0x99, 0x37, 0xbf, 0xfa, 0xca, 0x26, 0x3e, 0x7e, 0xf6,
    0xb8, 0xbe, 0x42, 0x19, 0x44, 0x3d, 0x98, 0xbe, 0x60, 0xbe,
    0xd4, 0x47, 0x82, 0x3e, 0x03, 0x60, 0xdf, 0xbc, 0x7a, 0x63,
    0x9c, 0xbe, 0x24, 0x4a, 0xfd, 0xbd, 0xe4, 0x4c, 0xfd, 0x3d,
    0xbb, 0x8d, 0x60, 0xbd, 0x49, 0x09, 0xa1, 0x3e, 0xf6, 0x39,
    0x8f, 0xbe, 0xe7, 0x26, 0x13, 0xbe, 0x76, 0x12, 0x7f, 0x3e,
    0x01, 0x86, 0x96, 0x3e, 0xb4, 0x5c, 0x26, 0x3e, 0xbc, 0x7f,
    0x90, 0x3d, 0xfa, 0xf2, 0x70, 0x3e, 0x69, 0xfc, 0x9a, 0xbe,
    0x49, 0x82, 0x50, 0x3e, 0x1e, 0xf9, 0xe5, 0xbd, 0x47, 0x78,
    0xc4, 0x3e, 0xac, 0x03, 0xb8, 0x3d, 0x71, 0x28, 0xcb, 0x3e,
    0x50, 0x5b, 0x75, 0x3d, 0x06, 0xdf, 0xe0, 0x3d, 0xe0, 0x54,
    0x8b, 0xbd, 0x66, 0xc4, 0x71, 0x3e, 0xb2, 0xd0, 0xff, 0x3d,
    0xb6, 0x00, 0xbe, 0xbe, 0x24, 0x48, 0x48, 0xbe, 0x9b, 0x10,
    0xc5, 0x3e, 0x70, 0x61, 0xcc, 0xbe, 0x1d, 0xcc, 0xb2, 0xbe,
    0x26, 0xc0, 0xa7, 0xbc, 0x19, 0xca, 0x2e, 0x3d, 0xb9, 0xfe,
    0xd4, 0xbd, 0xda, 0x0b, 0x3c, 0xbd, 0x31, 0xd8, 0x9e, 0x3e,
    0x23, 0x6d, 0xc8, 0x3e, 0x64, 0x77, 0x24, 0xbe, 0xb1, 0xfd,
    0xbd, 0xbe, 0x94, 0xef, 0xf3, 0xbd, 0xe2, 0xed, 0x26, 0x3e,
    0x11, 0xa5, 0x49, 0xbe, 0x8c, 0x9e, 0x77, 0x3d, 0x2b, 0xa4,
    0xb6, 0x3e, 0xbd, 0x42, 0x57, 0xbe, 0x92, 0x90, 0x68, 0x3e,
    0x8d, 0xf1, 0xd6, 0x3e, 0xcb, 0xf6, 0xc6, 0x3e, 0xf0, 0x04,
    0x1a, 0x3e, 0x04, 0x99, 0x65, 0xbe, 0x51, 0x4e, 0xed, 0xbd,
    0xe0, 0x98, 0xf9, 0xbc, 0x96, 0x54, 0x60, 0x3e, 0x10, 0xcc,
    0xcf, 0xbc, 0x68, 0x37, 0xce, 0x3e, 0x4a, 0xf5, 0x1b, 0xbe,
    0x00, 0x39, 0x76, 0xbb, 0x70, 0x0e, 0x86, 0xbe, 0x1a, 0xc5,
    0xd7, 0xbe, 0x50, 0x90, 0x88, 0xbd, 0x55, 0x41, 0x9a, 0x3b,
    0x4b, 0x8e, 0x68, 0xbe, 0x2b, 0x8a, 0x68, 0x3e, 0x66, 0x9d,
    0x26, 0x3e, 0x6f, 0xf6, 0xdc, 0xbe, 0xce, 0x01, 0xb6, 0xbe,
    0x8d, 0x42, 0xd6, 0xbe, 0x16, 0x6b, 0x75, 0x3e, 0x8a, 0x0e,
    0x18, 0x3e, 0x92, 0x2e, 0x33, 0x3e, 0x04, 0x5a, 0xb3, 0x3e,
    0x22, 0xe2, 0x9f, 0xbe, 0x7a, 0xb1, 0x5b, 0x3e, 0x04, 0xa1,
    0x4f, 0xbe, 0x40, 0xd8, 0xd5, 0xbe, 0xe8, 0xfc, 0xc7, 0xbe,
    0x4d, 0x13, 0xc0, 0x3e, 0x90, 0xce, 0x79, 0xbd, 0xde, 0xf3,
    0x91, 0x3e, 0x93, 0x01, 0x32, 0xbd, 0x77, 0xb1, 0x71, 0xbe,
    0xa9, 0xe8, 0xd4, 0xbe, 0xbf, 0xbc, 0xe2, 0xbc, 0xc6, 0x82,
    0x6a, 0xbe, 0x9a, 0xa4, 0x7e, 0xbe, 0xe8, 0xe0, 0x4c, 0xbe,
    0x3b, 0xeb, 0x9d, 0x3e, 0xee, 0x56, 0x7e, 0xbe, 0x28, 0x35,
    0x02, 0xbe, 0x59, 0xe6, 0x89, 0xbe, 0x76, 0xb6, 0x6e, 0xbe,
    0x8b, 0xb7, 0x87, 0x3e, 0x9d, 0x9d, 0x44, 0xbe, 0x23, 0x7e,
    0xb1, 0x3e, 0x72, 0x5e, 0xdb, 0xbe, 0xd5, 0xb5, 0xb7, 0x3e,
    0xb8, 0x32, 0x25, 0x3d, 0xc7, 0x28, 0xac, 0xbe, 0xdd, 0x88,
    0xa4, 0xbe, 0x22, 0xeb, 0x5d, 0x3e, 0x26, 0x37, 0x9d, 0xbe,
    0xe8, 0x8d, 0xc1, 0xbd, 0x37, 0xae, 0xaa, 0x3e, 0x94, 0x63,
    0xc4, 0x3d, 0x1e, 0x00, 0x25, 0xbe, 0x40, 0x34, 0x18, 0x3c,
    0x5a, 0x3b, 0x7e, 0xbe, 0xce, 0x22, 0x20, 0x3e, 0x82, 0x12,
    0xa8, 0xbe, 0x54, 0xa3, 0xbb, 0x3d, 0x3a, 0x54, 0x1f, 0xbe,
    0x44, 0x51, 0xc6, 0x3d, 0xd8, 0xa3, 0xea, 0xbd, 0x96, 0x91,
    0x2e, 0xbe, 0x6c, 0xc9, 0xc0, 0xbe, 0xb3, 0xa6, 0xda, 0xbe,
    0xab, 0x32, 0xa9, 0x3e, 0x62, 0x00, 0x2f, 0xbe, 0x3b, 0x7b,
    0xdb, 0xbe, 0xa2, 0xe7, 0x2c, 0x3e, 0x5a, 0x00, 0x4a, 0x3e,
    0x41, 0x75, 0xd4, 0xbd, 0xb1, 0xfd, 0x13, 0x3e, 0x3d, 0x3c,
    0x8d, 0x3e, 0x2a, 0x7f, 0xb5, 0xbe, 0x33, 0xa0, 0x84, 0x3e,
    0x8d, 0x57, 0xf8, 0xbe, 0x94, 0x85, 0xd5, 0x3e, 0x0a, 0x85,
    0x9e, 0x3e, 0xc7, 0xf7, 0x88, 0x3d, 0x29, 0x23, 0xa5, 0x3e,
    0xd6, 0xb6, 0x23, 0xbe, 0x8b, 0xba, 0xb5, 0x3e, 0x9c, 0x40,
    0xda, 0x3d, 0x81, 0x38, 0xe6, 0xbd, 0x7e, 0x68, 0x10, 0x3e,
    0x2c, 0xdd, 0xcb, 0x3d, 0xc5, 0xe6, 0x96, 0x3e, 0xf4, 0x8d,
    0x89, 0x3e, 0xfe, 0x64, 0x41, 0x3e, 0xe3, 0x77, 0xd0, 0x3e,
    0x60, 0xda, 0xd6, 0xbc, 0x4f, 0xd8, 0xf9, 0x3d, 0xad, 0xcd,
    0xab, 0xbe, 0x18, 0x3f, 0x65, 0xbe, 0x32, 0xf1, 0xe7, 0x3d,
    0x60, 0x00, 0xad, 0xbe, 0xf6, 0x01, 0x73, 0x3e, 0x6d, 0x70,
    0x6a, 0xbe, 0x10, 0xfc, 0x0d, 0x3d, 0x97, 0x45, 0x05, 0x3f,
    0x9c, 0xe4, 0xb9, 0xbe, 0x64, 0xad, 0x8f, 0xbd, 0x40, 0x40,
    0x3d, 0x3c, 0x33, 0xd4, 0x2f, 0xbe, 0x50, 0x8c, 0x06, 0x3d,
    0xcc, 0x47, 0x80, 0xbd, 0x42, 0xa5, 0x01, 0x3e, 0x74, 0x9d,
    0x0b, 0x3f, 0x68, 0xa8, 0x01, 0x3f, 0x4d, 0x2d, 0xa7, 0x3e,
    0x10, 0xea, 0x8c, 0xbd, 0x0c, 0xb6, 0x77, 0xbe, 0xb4, 0x3d,
    0xdc, 0x3d, 0xfe, 0xd0, 0x36, 0x3e, 0x41, 0xef, 0xab, 0x3e,
    0xce, 0xb9, 0xe4, 0x3c, 0xe4, 0x1e, 0x9e, 0x3d, 0xd4, 0x3a,
    0xb9, 0xbe, 0xaa, 0x3e, 0x09, 0x3f, 0x14, 0x79, 0xbb, 0x3d,
    0x6a, 0xfd, 0x1e, 0x3e, 0x03, 0xb7, 0xa6, 0x3e, 0x4e, 0x8e,
    0x92, 0xbe, 0x61, 0xb8, 0xd3, 0x3e, 0x41, 0x30, 0xa9, 0x3e,
    0x1c, 0x6a, 0xb8, 0x3e, 0x90, 0x41, 0x87, 0xbd, 0xcb, 0xcc,
    0x0c, 0xbf, 0xbd, 0x05, 0xae, 0xbe, 0x28, 0x6a, 0xc5, 0xbe,
    0x8e, 0x73, 0x1d, 0x3e, 0x6e, 0x8a, 0xb8, 0x3e, 0x2f, 0x83,
    0x9f, 0x3e, 0x42, 0x27, 0x38, 0xbe, 0xa3, 0x61, 0xcf, 0x3e,
    0x50, 0x5d, 0xbc, 0xbe, 0xcc, 0x10, 0x8d, 0xbe, 0xf0, 0x14,
    0x93, 0xbe, 0xc6, 0x8a, 0xcb, 0xbe, 0xb5, 0x69, 0xbe, 0x3e,
    0x2e, 0x35, 0xc2, 0xbe, 0x02, 0x98, 0xc4, 0xbe, 0x14, 0x0c,
    0xab, 0x3e, 0x04, 0x39, 0xa6, 0xbe, 0x5f, 0x70, 0x85, 0x3e,
    0xc4, 0x1d, 0x8a, 0xbd, 0x5e, 0x57, 0x70, 0x3e, 0x10, 0xe1,
    0x4d, 0xbb, 0x24, 0x4d, 0xb9, 0xbd, 0xac, 0xd7, 0x9e, 0x3d,
    0xa8, 0x20, 0xc0, 0x3e, 0xdf, 0xef, 0x80, 0x3e, 0x19, 0xe1,
    0x86, 0x3e, 0x29, 0x21, 0x12, 0xbe, 0x94, 0x84, 0x80, 0xbd,
    0x15, 0x56, 0x0a, 0xbf, 0xb0, 0xf4, 0xa1, 0x3e, 0x38, 0xfb,
    0xba, 0x3e, 0x22, 0x23, 0xad, 0xbe, 0xe9, 0x79, 0x53, 0x3e,
    0x2b, 0x9b, 0xbd, 0x3e, 0xbc, 0x2b, 0xe4, 0x3d, 0xba, 0xfc,
    0x73, 0xbe, 0x69, 0xd0, 0x88, 0xbe, 0x2f, 0x12, 0x93, 0xbe,
    0x3f, 0xb0, 0x93, 0x3e, 0x80, 0x9a, 0x4e, 0xbf, 0x57, 0x27,
    0x11, 0x3f, 0xde, 0x46, 0x85, 0xbe, 0x25, 0xcb, 0x01, 0xbf,
    0x21, 0xa3, 0x7f, 0xbe, 0x5e, 0x5a, 0x28, 0xbf, 0x6c, 0x7b,
    0x91, 0x3e, 0xc0, 0xc1, 0xd3, 0xbe, 0x88, 0xad, 0xe7, 0x3e,
    0xf2, 0xab, 0x61, 0xbd, 0x6e, 0x39, 0x6b, 0x3e, 0x39, 0x38,
    0xd7, 0xbe, 0x15, 0xe3, 0x8b, 0x3e, 0xba, 0xc8, 0x9f, 0xbc,
    0xb0, 0x3e, 0x8f, 0xbe, 0xeb, 0x7e, 0xa1, 0xbc, 0x38, 0xee,
    0x12, 0xbd, 0x6c, 0x9a, 0x02, 0x3c, 0x5d, 0xd9, 0x23, 0xbc,
    0x00, 0x00, 0x00, 0x00, 0x00, 0x00, 0x00, 0x00, 0xbd, 0x53,
    0x81, 0xbe, 0x6d, 0xd2, 0x0c, 0xbc, 0x7d, 0x11, 0x3a, 0x3c,
    0xa3, 0xc4, 0x4c, 0xbf, 0x54, 0x07, 0x72, 0xbc, 0x57, 0xa6,
    0x31, 0xbd, 0xd7, 0xb8, 0x7a, 0x3e, 0xe7, 0x64, 0x00, 0xbe,
    0x85, 0x4c, 0x79, 0x3f, 0x71, 0x51, 0x66, 0xbd, 0x12, 0x54,
    0x74, 0x3e, 0x97, 0x10, 0xad, 0x3e, 0x67, 0xe9, 0x82,
    0x3d, 0x13, 0x6b, 0xbe, 0xbe, 0x08, 0xa5, 0xa1, 0x3e,
    0x5f, 0x09, 0xee, 0xbe, 0xa9, 0x3c, 0x73, 0x3e, 0x25,
    0xdf, 0x4c, 0xbe, 0x6c, 0x3b, 0xf1, 0xbe, 0x26, 0x59,
    0x09, 0x40, 0x3b, 0x1a, 0xbf, 0xbe, 0xe2, 0xc0, 0x21,
    0x3f, 0x1c, 0x5c, 0x9d, 0x3f, 0x04, 0x86, 0xa4, 0xbe
  };

  return AI_HANDLE_PTR(s_sine_model_weights);

}

